<unk>	0
s	-3.01191
▁the	-3.3064
▁a	-3.88763
t	-3.9109
▁to	-3.9418
▁and	-4.00695
▁that	-4.1472
'	-4.14887
▁of	-4.21192
▁i	-4.28338
▁in	-4.3299
d	-4.45986
ed	-4.50274
ing	-4.58105
▁it	-4.61438
▁you	-4.66118
n	-4.71658
e	-4.81146
▁is	-4.82865
y	-4.84298
er	-4.95427
▁for	-5.02561
m	-5.07592
▁was	-5.09809
▁we	-5.12267
re	-5.13215
ly	-5.17261
r	-5.19104
▁he	-5.20264
▁s	-5.29823
▁be	-5.30402
c	-5.31557
▁this	-5.33569
▁so	-5.34881
▁on	-5.40047
▁have	-5.40956
g	-5.41208
a	-5.41635
▁not	-5.46278
or	-5.46927
p	-5.50585
▁they	-5.5213
▁with	-5.54336
o	-5.55076
al	-5.55786
▁but	-5.57088
▁c	-5.60206
▁are	-5.66857
▁re	-5.708
▁there	-5.7197
ar	-5.72039
b	-5.7282
l	-5.73367
le	-5.74736
▁know	-5.75832
▁as	-5.76391
in	-5.77182
u	-5.78957
▁what	-5.82451
▁do	-5.84196
▁or	-5.873
▁	-5.87542
▁at	-5.90446
ation	-5.9276
w	-5.95113
ll	-5.97891
f	-5.98177
▁one	-5.98197
▁e	-5.994
▁f	-6.00195
ri	-6.01002
▁if	-6.0142
▁b	-6.01851
ent	-6.01951
▁all	-6.05459
▁de	-6.06291
▁can	-6.07891
it	-6.09132
▁would	-6.09439
▁me	-6.09718
il	-6.11202
▁like	-6.12096
▁an	-6.12651
ce	-6.13747
▁no	-6.14346
▁t	-6.14376
ment	-6.15481
i	-6.19644
ve	-6.20529
k	-6.2056
▁from	-6.20712
▁just	-6.20928
▁by	-6.22157
▁his	-6.22687
▁had	-6.22896
ion	-6.23268
▁think	-6.23785
es	-6.26358
ch	-6.28135
on	-6.30523
▁about	-6.30789
th	-6.32557
▁my	-6.3408
ck	-6.35024
en	-6.35335
▁were	-6.35478
▁your	-6.3676
ur	-6.36794
▁will	-6.37536
ic	-6.37739
▁go	-6.38958
▁con	-6.39725
▁she	-6.4097
li	-6.41085
an	-6.41939
▁out	-6.42092
ter	-6.43866
▁because	-6.44229
se	-6.4599
la	-6.46081
▁when	-6.4621
▁st	-6.46785
▁has	-6.48439
▁don	-6.4864
▁which	-6.48954
ir	-6.48961
ra	-6.50111
▁p	-6.50674
▁two	-6.53343
▁right	-6.53353
▁court	-6.5447
▁some	-6.55176
▁pa	-6.55739
▁pro	-6.56366
lo	-6.5659
ate	-6.5719
▁time	-6.58352
▁uh	-6.594
te	-6.60626
▁up	-6.60743
▁our	-6.60816
▁g	-6.6195
▁case	-6.62197
▁w	-6.62264
▁her	-6.63933
▁well	-6.64425
ro	-6.64443
▁their	-6.66105
▁who	-6.66799
▁been	-6.66992
▁yeah	-6.67251
▁said	-6.68264
ers	-6.69412
▁mo	-6.69492
▁other	-6.69575
▁see	-6.69594
ive	-6.69949
tion	-6.70273
el	-6.7078
▁more	-6.73953
▁se	-6.74843
vi	-6.76224
▁any	-6.76504
▁get	-6.76799
▁also	-6.77858
▁fa	-6.78673
▁here	-6.78945
▁un	-6.80325
▁now	-6.80498
▁co	-6.81085
▁people	-6.81307
age	-6.81378
ist	-6.8281
ul	-6.84209
▁how	-6.84637
▁going	-6.85305
h	-6.85447
▁very	-6.85772
▁then	-6.85982
▁could	-6.86291
de	-6.87571
▁ma	-6.8759
ver	-6.88014
▁mean	-6.89035
▁su	-6.89079
id	-6.89223
ng	-6.8924
▁lo	-6.89385
▁sa	-6.89406
▁la	-6.89707
▁sp	-6.8989
▁us	-6.90189
ol	-6.90262
▁pre	-6.90805
ance	-6.9084
▁want	-6.9086
▁work	-6.91911
ld	-6.91946
▁did	-6.92095
ge	-6.9262
▁state	-6.92731
▁po	-6.92829
▁dis	-6.92862
ity	-6.93644
able	-6.93702
▁say	-6.93874
▁where	-6.94155
et	-6.95194
▁ra	-6.95885
us	-6.96114
▁li	-6.96142
ry	-6.96232
ction	-6.9729
▁um	-6.97651
nd	-6.97673
ne	-6.98047
▁even	-6.98963
▁him	-6.9918
▁ba	-7.00031
ad	-7.00067
▁these	-7.00076
▁part	-7.00877
▁really	-7.01556
lu	-7.02494
▁them	-7.02693
▁those	-7.03211
▁ho	-7.03778
v	-7.03819
▁bo	-7.03958
▁ex	-7.04583
ect	-7.04619
▁over	-7.04859
▁make	-7.06531
ru	-7.07049
▁ro	-7.07859
is	-7.08085
▁fi	-7.09063
▁m	-7.09156
ut	-7.093
ke	-7.10501
ence	-7.10553
▁bu	-7.11489
▁ch	-7.12158
▁comp	-7.12338
me	-7.12813
ted	-7.12898
▁en	-7.13022
▁fact	-7.13166
z	-7.13457
▁into	-7.13497
▁need	-7.13935
ure	-7.14199
▁way	-7.14219
ies	-7.14845
end	-7.15016
▁mi	-7.15039
▁take	-7.15331
un	-7.15407
▁only	-7.15644
▁should	-7.15675
as	-7.15799
▁look	-7.16519
▁three	-7.16796
one	-7.1741
▁v	-7.17909
co	-7.18057
▁com	-7.18358
▁man	-7.18977
ta	-7.19395
▁good	-7.19512
ated	-7.20268
▁back	-7.21128
▁first	-7.22203
▁mr	-7.22322
▁point	-7.23126
x	-7.2324
▁new	-7.23993
ant	-7.24022
▁vi	-7.24441
▁dr	-7.24764
ff	-7.25476
▁k	-7.25479
ci	-7.25611
▁app	-7.25994
um	-7.26048
▁n	-7.2612
▁exp	-7.2663
▁under	-7.26684
▁after	-7.27957
po	-7.28204
ight	-7.28593
▁d	-7.2918
est	-7.29294
mp	-7.29424
▁okay	-7.29546
ine	-7.30407
ti	-7.31565
mo	-7.3327
qu	-7.33473
▁da	-7.33717
▁come	-7.33754
▁day	-7.33773
▁oh	-7.34295
▁issue	-7.3462
at	-7.34798
▁question	-7.34902
▁than	-7.35427
▁pri	-7.35552
ho	-7.35832
ten	-7.37007
▁ca	-7.37394
▁off	-7.37399
ain	-7.37402
▁di	-7.37622
▁o	-7.37697
▁much	-7.40521
▁five	-7.40649
ow	-7.409
▁ha	-7.41643
▁thousand	-7.41742
▁six	-7.41909
▁give	-7.41948
▁let	-7.41955
▁le	-7.42609
ary	-7.43195
ous	-7.43602
sh	-7.43735
▁yes	-7.43739
▁four	-7.43883
▁before	-7.44371
▁call	-7.44795
▁ga	-7.45028
▁ne	-7.45328
▁law	-7.45555
ma	-7.45726
▁tra	-7.45852
ish	-7.46122
ical	-7.4669
▁something	-7.47402
iv	-7.47625
▁why	-7.48319
▁may	-7.49437
▁talk	-7.49684
▁actually	-7.50003
ig	-7.50192
▁act	-7.50548
▁got	-7.50646
▁car	-7.50913
▁through	-7.51522
ful	-7.51968
▁made	-7.52059
▁hundred	-7.5212
om	-7.52654
man	-7.52947
ia	-7.53144
▁didn	-7.53557
ual	-7.53782
▁kind	-7.54275
▁sta	-7.54474
ting	-7.54877
▁things	-7.55296
ell	-7.55834
▁down	-7.5587
im	-7.5635
▁years	-7.56811
▁lot	-7.56935
▁ri	-7.57354
pe	-7.57371
ard	-7.57492
he	-7.59531
▁gra	-7.59967
▁year	-7.60166
▁every	-7.60566
▁eight	-7.61078
▁reason	-7.6164
▁seven	-7.62338
ca	-7.62471
ise	-7.63057
▁twenty	-7.63185
▁many	-7.63236
▁per	-7.6346
op	-7.63775
▁little	-7.64017
▁mar	-7.64481
▁same	-7.64687
▁find	-7.64884
▁different	-7.65231
▁wa	-7.65629
pp	-7.65688
▁nine	-7.65728
if	-7.65919
▁does	-7.65963
ie	-7.66457
ach	-7.66468
cu	-7.66524
▁never	-7.66947
▁thing	-7.66974
▁whether	-7.67551
ward	-7.67865
▁again	-7.6788
▁put	-7.68119
▁claim	-7.68143
▁op	-7.68506
ugh	-7.68672
▁show	-7.68989
tic	-7.69278
ial	-7.69396
▁still	-7.69406
▁government	-7.69561
ok	-7.69643
▁th	-7.69739
▁long	-7.70185
▁gu	-7.70497
▁being	-7.70527
▁plan	-7.7093
▁own	-7.71567
am	-7.71603
ian	-7.72075
▁evidence	-7.72253
ot	-7.72507
mb	-7.72698
▁most	-7.73078
▁ru	-7.73615
mit	-7.73651
▁thank	-7.73695
ious	-7.73763
▁person	-7.73973
em	-7.74697
▁use	-7.74951
na	-7.75065
▁sha	-7.75634
▁r	-7.75793
▁believe	-7.76261
mi	-7.76681
▁school	-7.76682
▁record	-7.77672
ition	-7.78101
▁imp	-7.79068
ound	-7.79235
▁place	-7.79729
ities	-7.79917
▁happen	-7.80132
▁ph	-7.80617
▁great	-7.80849
ative	-7.8109
ha	-7.81685
no	-7.8192
▁cha	-7.82092
ite	-7.82093
▁clear	-7.82261
▁help	-7.82338
dic	-7.82599
ea	-7.83059
▁high	-7.83497
▁judge	-7.83862
▁al	-7.84074
▁last	-7.84579
di	-7.84803
qui	-7.84818
▁sure	-7.85092
tra	-7.85174
go	-7.85242
▁sh	-7.85274
▁both	-7.86145
▁read	-7.86794
ving	-7.87457
▁district	-7.87967
▁ref	-7.88067
▁sub	-7.88088
▁hi	-7.88215
▁such	-7.88573
▁ten	-7.88929
▁start	-7.89603
▁doesn	-7.91334
ph	-7.91563
▁change	-7.91568
ay	-7.91582
▁count	-7.91591
▁ob	-7.92581
▁found	-7.92942
▁du	-7.93296
▁ki	-7.93473
▁pay	-7.94173
▁order	-7.9429
▁another	-7.94315
for	-7.94509
▁hand	-7.94629
lic	-7.94858
▁number	-7.94898
▁too	-7.95303
▁ta	-7.9548
ni	-7.95975
ens	-7.96071
▁tell	-7.96191
ven	-7.96383
port	-7.96504
▁fun	-7.96575
▁h	-7.96811
▁term	-7.96982
▁end	-7.98241
rr	-7.98451
▁must	-7.9904
▁home	-7.99293
▁hu	-7.99697
▁wi	-7.99775
side	-8.01026
▁certain	-8.01058
▁name	-8.01068
▁understand	-8.01129
▁money	-8.01343
ize	-8.01367
▁pu	-8.01477
▁interest	-8.01561
ip	-8.01876
▁came	-8.01967
▁house	-8.02009
land	-8.02103
▁men	-8.02226
▁require	-8.02343
▁says	-8.0254
min	-8.02578
▁member	-8.02731
our	-8.02825
ating	-8.02935
ber	-8.02962
▁jo	-8.03073
▁might	-8.03257
vo	-8.0329
▁support	-8.03469
ries	-8.03892
son	-8.03904
▁problem	-8.04279
ling	-8.0446
▁old	-8.04515
▁pe	-8.04547
▁second	-8.04767
▁def	-8.0477
ness	-8.04891
▁decision	-8.05608
row	-8.05741
▁dollars	-8.05786
▁mu	-8.05867
▁conf	-8.06149
use	-8.06401
▁ah	-8.06759
▁va	-8.069
▁life	-8.07021
▁inter	-8.075
▁play	-8.07627
va	-8.07788
▁saying	-8.08265
▁pi	-8.08295
▁far	-8.08369
▁went	-8.08624
▁public	-8.09081
▁war	-8.09371
▁trans	-8.09644
▁live	-8.09769
▁ask	-8.09779
▁real	-8.10281
rate	-8.10664
▁important	-8.10777
▁thought	-8.11341
▁done	-8.11365
▁between	-8.11583
▁argument	-8.11685
▁rep	-8.12465
▁consider	-8.12509
▁anything	-8.12752
▁direct	-8.13753
less	-8.1379
▁ja	-8.14377
▁doing	-8.14735
▁course	-8.14967
line	-8.1498
▁month	-8.15089
▁word	-8.15292
▁care	-8.15391
▁provide	-8.15495
ap	-8.15614
▁honor	-8.15843
ba	-8.16065
ator	-8.16143
j	-8.16579
▁report	-8.16587
▁exc	-8.17717
▁service	-8.17727
▁tri	-8.17995
nk	-8.18562
▁world	-8.18778
▁without	-8.19845
▁ju	-8.19868
▁against	-8.19954
ible	-8.2001
▁used	-8.20453
▁always	-8.20522
▁able	-8.20625
ship	-8.20658
▁rule	-8.21223
▁matter	-8.21235
▁while	-8.21387
par	-8.21484
▁maybe	-8.21651
▁miss	-8.21888
▁around	-8.22213
▁u	-8.22807
▁today	-8.23514
▁friend	-8.23574
▁ti	-8.23677
▁big	-8.23908
bu	-8.25207
▁next	-8.25218
ju	-8.25437
▁thirty	-8.2615
▁pass	-8.26664
▁y	-8.26709
▁business	-8.2706
▁test	-8.27192
▁fo	-8.27206
▁nothing	-8.27358
▁turn	-8.27658
▁process	-8.277
com	-8.27878
▁el	-8.28
▁better	-8.28086
▁commission	-8.28106
▁week	-8.28551
▁move	-8.28817
▁trial	-8.2933
▁open	-8.29365
▁each	-8.29395
▁specific	-8.29571
▁feel	-8.29613
▁cap	-8.29661
ency	-8.29835
▁particular	-8.29895
ability	-8.30361
▁system	-8.30875
gra	-8.3112
▁present	-8.31276
▁looking	-8.3154
duc	-8.32012
▁fra	-8.32345
▁correct	-8.32378
▁allow	-8.32432
▁side	-8.33521
ign	-8.33656
serv	-8.34918
▁city	-8.35114
▁agree	-8.35225
▁having	-8.35541
▁defendant	-8.35977
▁keep	-8.36067
▁follow	-8.36086
▁invest	-8.36103
▁add	-8.36234
▁information	-8.36336
▁whole	-8.36452
▁general	-8.36773
hi	-8.37286
▁away	-8.37759
▁upon	-8.37843
▁win	-8.37876
▁based	-8.38012
▁program	-8.38366
▁develop	-8.38375
▁country	-8.38516
ified	-8.38819
▁sort	-8.39013
▁board	-8.3916
▁qua	-8.39656
ex	-8.39857
▁family	-8.39988
▁close	-8.40114
▁dec	-8.4027
▁though	-8.40303
▁hard	-8.40316
▁answer	-8.40517
▁guess	-8.40829
▁job	-8.41187
▁trying	-8.4167
▁je	-8.42679
▁asked	-8.42774
▁during	-8.42911
▁fee	-8.42947
▁love	-8.43046
▁already	-8.4339
▁address	-8.43928
▁ever	-8.44234
▁bill	-8.44324
gue	-8.45149
▁cause	-8.45364
▁gen	-8.45576
▁free	-8.45745
▁continue	-8.45946
▁fifty	-8.46775
▁contract	-8.46969
▁european	-8.47013
▁rest	-8.47015
▁few	-8.47047
▁water	-8.47107
▁line	-8.47546
▁position	-8.47646
▁percent	-8.47781
▁enough	-8.48453
▁sea	-8.48764
▁har	-8.48974
▁america	-8.49179
▁full	-8.50284
▁since	-8.50427
▁everything	-8.50663
▁bring	-8.50735
▁lead	-8.50767
▁probably	-8.5078
▁children	-8.50966
▁tax	-8.51183
▁face	-8.51201
▁best	-8.51422
▁concern	-8.51433
▁sign	-8.51531
▁mhm	-8.5172
▁minute	-8.5245
▁bit	-8.52588
▁stand	-8.53396
▁situation	-8.53488
▁speak	-8.53944
▁hope	-8.53986
▁yet	-8.54098
▁discuss	-8.54652
▁standard	-8.54739
▁brief	-8.54929
▁statute	-8.55189
▁officer	-8.55328
▁ok	-8.55347
▁respect	-8.55373
▁together	-8.55387
▁agreement	-8.55436
▁room	-8.55507
▁least	-8.55609
▁market	-8.56207
▁however	-8.56304
▁getting	-8.5648
▁else	-8.56715
▁true	-8.5735
▁counsel	-8.57393
ttle	-8.57534
▁err	-8.57653
▁effect	-8.58066
▁example	-8.58199
▁less	-8.58583
▁cost	-8.58671
▁left	-8.587
▁group	-8.58704
▁level	-8.58828
▁policy	-8.59079
▁town	-8.59082
▁small	-8.59091
▁child	-8.5911
▁president	-8.59252
▁large	-8.5941
▁later	-8.5968
▁protect	-8.59839
▁decide	-8.59865
way	-8.60153
▁making	-8.60336
▁regard	-8.60362
▁book	-8.60408
▁pretty	-8.60445
▁author	-8.60544
▁hour	-8.61483
▁idea	-8.61874
▁include	-8.61964
▁exactly	-8.61994
▁power	-8.62075
▁limit	-8.62432
▁watch	-8.62485
▁night	-8.62807
▁ya	-8.63635
▁jury	-8.63694
▁leave	-8.63812
▁quite	-8.63956
▁cover	-8.64034
▁grow	-8.64087
▁result	-8.64918
▁singapore	-8.6529
▁either	-8.65431
▁company	-8.65657
▁stop	-8.66169
▁community	-8.66982
▁million	-8.67059
▁current	-8.67357
▁federal	-8.67921
▁united	-8.681
▁mind	-8.68365
▁step	-8.68439
▁class	-8.69014
▁police	-8.69578
▁remain	-8.70047
▁health	-8.70131
▁final	-8.7037
▁represent	-8.70732
▁light	-8.7173
▁treat	-8.72451
▁review	-8.72717
▁testimony	-8.72966
▁bank	-8.73168
▁product	-8.7353
▁appeal	-8.73612
▁half	-8.73638
▁cannot	-8.74236
▁involve	-8.7433
▁charge	-8.7451
▁knew	-8.74528
▁learn	-8.74844
▁eye	-8.7509
▁language	-8.75207
▁individual	-8.75576
▁receive	-8.7588
▁further	-8.76324
▁mister	-8.76849
▁view	-8.77119
▁council	-8.77187
▁until	-8.77872
▁human	-8.78283
▁stuff	-8.78933
▁student	-8.79001
▁become	-8.79074
▁walk	-8.79421
▁control	-8.79606
▁check	-8.7976
▁seems	-8.80605
▁strong	-8.80668
▁period	-8.80835
▁please	-8.81052
▁food	-8.81059
▁type	-8.81071
▁complete	-8.81714
▁purpose	-8.8189
▁account	-8.82531
▁project	-8.82686
▁sense	-8.82864
▁national	-8.82924
▁appear	-8.8307
▁simply	-8.8355
▁return	-8.83742
▁benefit	-8.8388
▁employ	-8.84023
▁create	-8.84074
▁wrong	-8.84311
▁whatever	-8.84539
▁morning	-8.84604
▁suggest	-8.8498
▁condition	-8.85096
▁amount	-8.85197
▁object	-8.85388
▁third	-8.85609
▁remember	-8.85706
▁himself	-8.8648
▁property	-8.86667
▁itself	-8.87131
▁somebody	-8.87283
▁suppose	-8.87729
▁future	-8.8805
▁short	-8.88536
▁opinion	-8.88537
▁several	-8.8888
▁common	-8.89514
▁taking	-8.8994
▁notice	-8.90291
▁office	-8.90755
▁almost	-8.91074
▁father	-8.91522
▁document	-8.93135
▁judgment	-8.93517
▁experience	-8.93708
▁uhhuh	-8.94282
▁committee	-8.94464
▁parent	-8.94658
▁legal	-8.95078
▁client	-8.95282
▁major	-8.95286
▁congress	-8.95347
▁rather	-8.95844
▁proceed	-8.95903
▁possible	-8.96184
▁plea	-8.96986
▁subject	-8.97233
▁along	-8.97325
▁mother	-8.97346
▁increase	-8.97621
▁meeting	-8.97677
▁girl	-8.97813
▁couple	-8.98003
▁north	-8.98205
▁local	-8.98769
▁sometimes	-8.98901
▁brought	-8.99432
▁fifteen	-8.99524
▁organ	-8.9989
▁difference	-8.99953
▁entire	-9.01016
▁security	-9.01059
▁department	-9.01178
▁south	-9.01416
▁vote	-9.01545
▁basis	-9.01546
▁twelve	-9.02257
▁conduct	-9.02285
▁street	-9.02304
▁social	-9.02308
▁wonder	-9.02355
▁supreme	-9.02736
▁difficult	-9.02982
▁travel	-9.03377
▁opportunity	-9.03544
▁defense	-9.03614
▁plaintiff	-9.03962
▁white	-9.04234
▁focus	-9.04245
▁therefore	-9.04306
▁challenge	-9.04331
▁value	-9.04772
▁except	-9.05048
▁among	-9.06512
▁ground	-9.06849
▁serve	-9.07044
▁attorney	-9.07851
▁education	-9.08087
▁credit	-9.08163
▁request	-9.08265
▁women	-9.088
▁basically	-9.09031
▁political	-9.09232
▁determine	-9.09492
▁access	-9.10648
▁across	-9.10743
▁sentence	-9.10825
▁perform	-9.10892
▁everybody	-9.10925
▁black	-9.10926
▁drug	-9.10967
▁accept	-9.1116
▁eleven	-9.11364
▁establish	-9.11478
▁design	-9.11658
▁success	-9.11797
▁including	-9.12041
▁john	-9.12115
▁employee	-9.13045
▁nice	-9.13525
▁crime	-9.13568
ibility	-9.13792
▁circumstance	-9.14069
▁occur	-9.14127
▁citizen	-9.14442
▁woman	-9.14602
▁witness	-9.14622
▁explain	-9.14644
▁additional	-9.14665
▁history	-9.14927
▁front	-9.15337
▁medical	-9.15616
▁death	-9.15855
ification	-9.16062
▁financial	-9.16478
▁break	-9.16866
▁connect	-9.17213
▁perhaps	-9.1739
▁sorry	-9.17422
▁especially	-9.1758
▁trust	-9.17594
▁insurance	-9.18285
▁economic	-9.18607
▁effort	-9.19186
▁circuit	-9.19196
▁cross	-9.19591
▁instead	-9.19723
▁affect	-9.19903
▁zero	-9.20141
▁available	-9.20769
▁team	-9.21706
▁application	-9.2189
▁separate	-9.22192
▁absolutely	-9.22227
▁christ	-9.22667
ization	-9.23734
▁europe	-9.23791
▁budget	-9.23896
▁damage	-9.23976
▁myself	-9.24506
▁private	-9.24722
▁figure	-9.25259
▁provision	-9.25344
▁collect	-9.25536
▁similar	-9.25629
▁regulation	-9.26179
▁approach	-9.26478
▁themselves	-9.27531
▁construct	-9.27705
▁petition	-9.27737
▁material	-9.27916
▁improve	-9.27992
▁york	-9.28463
▁parliament	-9.29099
▁broad	-9.29759
▁companies	-9.29798
▁nature	-9.29833
▁piece	-9.30056
▁threat	-9.30893
▁energy	-9.31421
▁behind	-9.32084
▁significant	-9.32477
▁response	-9.33036
▁definitely	-9.33051
▁guide	-9.33241
▁beyond	-9.33485
▁amendment	-9.33552
▁measure	-9.33664
▁criminal	-9.33766
▁original	-9.3398
▁brother	-9.34819
▁impact	-9.35544
q	-9.42163
